// Auto-generated serialization of TFLite flatbuffers in config directory

#include "em_device.h"
#include "sl_tflite_micro_model.h"

// Model data generated from "tflite_learn_23.tflite"
const uint8_t sl_tflite_model_array[] __ALIGNED(4) = {
  0x1c, 0x00, 0x00, 0x00, 0x54, 0x46, 0x4c, 0x33, 0x14, 0x00, 0x20, 0x00, 
  0x1c, 0x00, 0x18, 0x00, 0x14, 0x00, 0x10, 0x00, 0x0c, 0x00, 0x00, 0x00, 
  0x08, 0x00, 0x04, 0x00, 0x14, 0x00, 0x00, 0x00, 0x1c, 0x00, 0x00, 0x00, 
  0x8c, 0x00, 0x00, 0x00, 0xe4, 0x00, 0x00, 0x00, 0x94, 0x0b, 0x00, 0x00, 
  0xa4, 0x0b, 0x00, 0x00, 0xb0, 0x1b, 0x00, 0x00, 0x03, 0x00, 0x00, 0x00, 
  0x01, 0x00, 0x00, 0x00, 0x10, 0x00, 0x00, 0x00, 0x00, 0x00, 0x0a, 0x00, 
  0x10, 0x00, 0x0c, 0x00, 0x08, 0x00, 0x04, 0x00, 0x0a, 0x00, 0x00, 0x00, 
  0x0c, 0x00, 0x00, 0x00, 0x1c, 0x00, 0x00, 0x00, 0x3c, 0x00, 0x00, 0x00, 
  0x0f, 0x00, 0x00, 0x00, 0x73, 0x65, 0x72, 0x76, 0x69, 0x6e, 0x67, 0x5f, 
  0x64, 0x65, 0x66, 0x61, 0x75, 0x6c, 0x74, 0x00, 0x01, 0x00, 0x00, 0x00, 
  0x04, 0x00, 0x00, 0x00, 0x9c, 0xff, 0xff, 0xff, 0x16, 0x00, 0x00, 0x00, 
  0x04, 0x00, 0x00, 0x00, 0x08, 0x00, 0x00, 0x00, 0x6f, 0x75, 0x74, 0x70, 
  0x75, 0x74, 0x5f, 0x30, 0x00, 0x00, 0x00, 0x00, 0x01, 0x00, 0x00, 0x00, 
  0x04, 0x00, 0x00, 0x00, 0x46, 0xf4, 0xff, 0xff, 0x04, 0x00, 0x00, 0x00, 
  0x01, 0x00, 0x00, 0x00, 0x78, 0x00, 0x00, 0x00, 0x02, 0x00, 0x00, 0x00, 
  0x34, 0x00, 0x00, 0x00, 0x04, 0x00, 0x00, 0x00, 0xdc, 0xff, 0xff, 0xff, 
  0x19, 0x00, 0x00, 0x00, 0x04, 0x00, 0x00, 0x00, 0x13, 0x00, 0x00, 0x00, 
  0x43, 0x4f, 0x4e, 0x56, 0x45, 0x52, 0x53, 0x49, 0x4f, 0x4e, 0x5f, 0x4d, 
  0x45, 0x54, 0x41, 0x44, 0x41, 0x54, 0x41, 0x00, 0x08, 0x00, 0x0c, 0x00, 
  0x08, 0x00, 0x04, 0x00, 0x08, 0x00, 0x00, 0x00, 0x18, 0x00, 0x00, 0x00, 
  0x04, 0x00, 0x00, 0x00, 0x13, 0x00, 0x00, 0x00, 0x6d, 0x69, 0x6e, 0x5f, 
  0x72, 0x75, 0x6e, 0x74, 0x69, 0x6d, 0x65, 0x5f, 0x76, 0x65, 0x72, 0x73, 
  0x69, 0x6f, 0x6e, 0x00, 0x1a, 0x00, 0x00, 0x00, 0xac, 0x0a, 0x00, 0x00, 
  0xa4, 0x0a, 0x00, 0x00, 0x84, 0x0a, 0x00, 0x00, 0x64, 0x0a, 0x00, 0x00, 
  0x44, 0x0a, 0x00, 0x00, 0x24, 0x0a, 0x00, 0x00, 0x0c, 0x0a, 0x00, 0x00, 
  0xf4, 0x09, 0x00, 0x00, 0xc4, 0x06, 0x00, 0x00, 0x74, 0x06, 0x00, 0x00, 
  0xe4, 0x04, 0x00, 0x00, 0xb4, 0x04, 0x00, 0x00, 0xe4, 0x00, 0x00, 0x00, 
  0xdc, 0x00, 0x00, 0x00, 0xd4, 0x00, 0x00, 0x00, 0xcc, 0x00, 0x00, 0x00, 
  0xc4, 0x00, 0x00, 0x00, 0xbc, 0x00, 0x00, 0x00, 0xb4, 0x00, 0x00, 0x00, 
  0xac, 0x00, 0x00, 0x00, 0xa4, 0x00, 0x00, 0x00, 0x9c, 0x00, 0x00, 0x00, 
  0x94, 0x00, 0x00, 0x00, 0x8c, 0x00, 0x00, 0x00, 0x6c, 0x00, 0x00, 0x00, 
  0x04, 0x00, 0x00, 0x00, 0x1e, 0xf5, 0xff, 0xff, 0x04, 0x00, 0x00, 0x00, 
  0x58, 0x00, 0x00, 0x00, 0x0c, 0x00, 0x00, 0x00, 0x08, 0x00, 0x0e, 0x00, 
  0x08, 0x00, 0x04, 0x00, 0x08, 0x00, 0x00, 0x00, 0x10, 0x00, 0x00, 0x00, 
  0x28, 0x00, 0x00, 0x00, 0x00, 0x00, 0x06, 0x00, 0x08, 0x00, 0x04, 0x00, 
  0x06, 0x00, 0x00, 0x00, 0x04, 0x00, 0x00, 0x00, 0x01, 0x00, 0x00, 0x00, 
  0xeb, 0x03, 0x00, 0x00, 0x00, 0x00, 0x0a, 0x00, 0x10, 0x00, 0x0c, 0x00, 
  0x08, 0x00, 0x04, 0x00, 0x0a, 0x00, 0x00, 0x00, 0x03, 0x00, 0x00, 0x00, 
  0x02, 0x00, 0x00, 0x00, 0x04, 0x00, 0x00, 0x00, 0x06, 0x00, 0x00, 0x00, 
  0x32, 0x2e, 0x31, 0x31, 0x2e, 0x31, 0x00, 0x00, 0x82, 0xf5, 0xff, 0xff, 
  0x04, 0x00, 0x00, 0x00, 0x10, 0x00, 0x00, 0x00, 0x31, 0x2e, 0x31, 0x34, 
  0x2e, 0x30, 0x00, 0x00, 0x00, 0x00, 0x00, 0x00, 0x00, 0x00, 0x00, 0x00, 
  0xd0, 0xe6, 0xff, 0xff, 0xd4, 0xe6, 0xff, 0xff, 0xd8, 0xe6, 0xff, 0xff, 
  0xdc, 0xe6, 0xff, 0xff, 0xe0, 0xe6, 0xff, 0xff, 0xe4, 0xe6, 0xff, 0xff, 
  0xe8, 0xe6, 0xff, 0xff, 0xec, 0xe6, 0xff, 0xff, 0xf0, 0xe6, 0xff, 0xff, 
  0xf4, 0xe6, 0xff, 0xff, 0xf8, 0xe6, 0xff, 0xff, 0xca, 0xf5, 0xff, 0xff, 
  0x04, 0x00, 0x00, 0x00, 0xc0, 0x03, 0x00, 0x00, 0x00, 0x50, 0x24, 0x27, 
  0xee, 0x34, 0x5d, 0x13, 0x0f, 0x0d, 0x30, 0xe4, 0x59, 0xd6, 0xc3, 0xec, 
  0xdf, 0xd0, 0xe0, 0xc4, 0xfd, 0xf4, 0x10, 0x3c, 0x37, 0x08, 0x0d, 0xd9, 
  0x03, 0xdc, 0xd3, 0x09, 0x00, 0xde, 0x0a, 0xea, 0xfa, 0xe9, 0x0e, 0x31, 
  0x07, 0x4b, 0x0a, 0x74, 0x13, 0x31, 0x7f, 0x65, 0x1b, 0x12, 0x65, 0x6a, 
  0xe3, 0x3d, 0x0a, 0x0a, 0x20, 0xfd, 0xe7, 0x1a, 0xbf, 0x1f, 0x0d, 0x13, 
  0x04, 0xf5, 0x36, 0xf9, 0x24, 0xeb, 0xd8, 0x1c, 0xd8, 0xcc, 0xe6, 0xfe, 
  0x0e, 0x06, 0xdb, 0x15, 0x37, 0x56, 0x3c, 0xfc, 0x38, 0xfa, 0xf9, 0x12, 
  0xf4, 0x2f, 0xf6, 0xe7, 0x18, 0xcd, 0xc4, 0xcd, 0xc5, 0xc7, 0xfc, 0xc4, 
  0xf7, 0xd0, 0xe2, 0x08, 0x0d, 0xe0, 0xd9, 0x02, 0xe6, 0xe3, 0xce, 0xc4, 
  0xe3, 0xc8, 0xd8, 0xdc, 0xe0, 0x12, 0x08, 0x1c, 0xd7, 0x01, 0x10, 0xe6, 
  0x0e, 0x07, 0x04, 0x07, 0x29, 0xfd, 0xe2, 0xc6, 0xe6, 0xf6, 0x21, 0x1d, 
  0xf5, 0x1a, 0x11, 0x0e, 0x03, 0xf7, 0x00, 0xe7, 0xcf, 0xc6, 0xd1, 0xd9, 
  0xdb, 0xdd, 0xd8, 0xbf, 0xf1, 0xf8, 0xf6, 0xf9, 0xde, 0xde, 0xee, 0xdf, 
  0x3c, 0x1c, 0x0c, 0xfd, 0x07, 0x04, 0x02, 0x0e, 0xfa, 0xed, 0xe9, 0xe1, 
  0xf4, 0xe7, 0xf3, 0x0c, 0xfe, 0xea, 0xe7, 0xf2, 0x03, 0x12, 0xff, 0xe6, 
  0xd9, 0xf6, 0xf8, 0xe8, 0xe0, 0xfb, 0xed, 0xf7, 0x05, 0x17, 0xf6, 0xf1, 
  0xef, 0xec, 0xf2, 0xfc, 0x7f, 0x34, 0x17, 0xfd, 0xed, 0x1b, 0x14, 0x0e, 
  0x06, 0x14, 0xf4, 0xfe, 0x0f, 0xec, 0xfa, 0x27, 0x0c, 0x19, 0x14, 0xfb, 
  0xfd, 0x0b, 0xf3, 0x02, 0x01, 0x14, 0xf6, 0x26, 0x02, 0xf3, 0x1a, 0xfd, 
  0x1c, 0xf4, 0xfb, 0x27, 0x3a, 0x23, 0x0b, 0x5d, 0xea, 0x41, 0xf6, 0xcf, 
  0xe3, 0xe2, 0xe3, 0xe4, 0xce, 0xda, 0xef, 0xd4, 0xe8, 0xdd, 0xe6, 0x43, 
  0xfa, 0xe3, 0xde, 0xce, 0xea, 0xcd, 0xd4, 0xbc, 0xcd, 0xdd, 0xde, 0xef, 
  0x04, 0xf4, 0xef, 0xef, 0xef, 0x10, 0x0c, 0xf1, 0x5f, 0x41, 0x5e, 0x7f, 
  0x05, 0x00, 0x1b, 0xcb, 0xf4, 0xf2, 0xe2, 0xd0, 0xde, 0xd5, 0xf3, 0xd3, 
  0xcd, 0xf1, 0xfc, 0x42, 0xde, 0xed, 0xe2, 0xd6, 0xd8, 0xe6, 0xc8, 0xaf, 
  0xb2, 0xe4, 0xcf, 0xf4, 0xd5, 0xde, 0xd2, 0xe4, 0xd2, 0xdd, 0xc5, 0xbd, 
  0xd9, 0x26, 0xf0, 0x29, 0xe7, 0x0f, 0x1b, 0xf0, 0xfb, 0xf6, 0xfd, 0xfe, 
  0xfa, 0xdd, 0xe8, 0xe2, 0xed, 0x09, 0xfd, 0x46, 0xf2, 0xf5, 0xff, 0xce, 
  0xf0, 0xea, 0xd6, 0xc8, 0xe2, 0xd8, 0xf8, 0xf8, 0x0d, 0x1e, 0x0d, 0xea, 
  0x03, 0xe2, 0x0c, 0xe3, 0x11, 0x3e, 0x00, 0x23, 0xdd, 0xfd, 0xfe, 0xce, 
  0x32, 0xfb, 0x7f, 0x3a, 0x57, 0xdd, 0x18, 0xe5, 0xfc, 0x09, 0xf7, 0xcb, 
  0x1f, 0xf4, 0x07, 0x02, 0x02, 0x26, 0x29, 0x52, 0x2c, 0x3b, 0x2f, 0xdd, 
  0x26, 0x08, 0x08, 0x0b, 0x0b, 0xfe, 0x05, 0xfa, 0xd6, 0xe4, 0xbc, 0x1e, 
  0xc3, 0xe5, 0xf9, 0xe9, 0x1b, 0x2b, 0x72, 0x1a, 0x59, 0x3d, 0xf5, 0x04, 
  0xea, 0xd4, 0x14, 0xb0, 0x1c, 0x12, 0xf0, 0x0e, 0x06, 0x0b, 0xfa, 0x5c, 
  0x1a, 0xea, 0x1e, 0xe3, 0x03, 0xea, 0x19, 0x1d, 0xf9, 0xe4, 0xd7, 0xd6, 
  0xdf, 0xc7, 0x05, 0xef, 0xf4, 0xf7, 0x0e, 0xd0, 0x1c, 0x40, 0x40, 0x36, 
  0xe3, 0x20, 0x74, 0xe6, 0xd1, 0x02, 0xac, 0xdb, 0xf1, 0xe5, 0xd9, 0x23, 
  0xbb, 0x0d, 0xdf, 0x1e, 0xfe, 0x06, 0x2c, 0x05, 0x25, 0xda, 0x1d, 0xd9, 
  0xe9, 0xe2, 0xd1, 0xe3, 0xe8, 0xbb, 0xbe, 0xf3, 0x36, 0xea, 0xfe, 0x17, 
  0xcf, 0xfc, 0xf8, 0x19, 0xef, 0xf2, 0xc8, 0x14, 0x16, 0x0e, 0xe2, 0x22, 
  0xd1, 0xce, 0xd6, 0xc8, 0xd1, 0xc2, 0xbe, 0xe6, 0xc5, 0xdd, 0xd6, 0x01, 
  0x19, 0xdb, 0xc6, 0xff, 0xcf, 0xe9, 0x38, 0xed, 0xf3, 0x64, 0xf0, 0x21, 
  0x56, 0x22, 0x3e, 0xf7, 0xeb, 0xff, 0x2a, 0xed, 0x14, 0xf4, 0xf3, 0x15, 
  0xf4, 0x25, 0xd9, 0xf5, 0xd7, 0x01, 0x16, 0xdf, 0xdf, 0x15, 0x1c, 0x22, 
  0xe8, 0x25, 0xf2, 0xd4, 0xf1, 0x31, 0xc0, 0x3a, 0xc9, 0xd6, 0x5d, 0x4d, 
  0xf8, 0x3c, 0xdb, 0x08, 0x4b, 0xeb, 0xef, 0xff, 0xe2, 0xf8, 0x24, 0x0f, 
  0x05, 0xec, 0xed, 0x31, 0x34, 0x32, 0xd2, 0x08, 0xd2, 0xd4, 0x03, 0xfa, 
  0xfc, 0xec, 0xe7, 0xdb, 0xf2, 0xc7, 0xc3, 0xe0, 0xe2, 0x2f, 0x1e, 0xc3, 
  0x3e, 0x1e, 0xeb, 0x69, 0x79, 0x7f, 0x0e, 0xd2, 0xbf, 0xfb, 0x06, 0x41, 
  0x36, 0x16, 0x0d, 0x35, 0x13, 0x53, 0x15, 0x7f, 0x27, 0x46, 0xfb, 0xf6, 
  0xd7, 0x05, 0x0c, 0x3e, 0xe1, 0xf9, 0x2f, 0xda, 0xff, 0xda, 0x04, 0x0d, 
  0xd5, 0x1d, 0xc8, 0x17, 0xf0, 0xdf, 0x07, 0xe9, 0xd7, 0xc9, 0xff, 0xe2, 
  0xb7, 0xd7, 0x09, 0x44, 0x15, 0x03, 0xf6, 0x0f, 0xee, 0xfe, 0x02, 0xf5, 
  0x16, 0x3a, 0xef, 0xe8, 0xf3, 0xe8, 0x3e, 0x48, 0x1c, 0xec, 0x13, 0x31, 
  0xe1, 0x0a, 0xe1, 0x19, 0xfc, 0xfd, 0xdb, 0xe4, 0xcb, 0xf9, 0xd2, 0xdb, 
  0xeb, 0x07, 0xd6, 0xd0, 0x03, 0xe9, 0x33, 0x3c, 0x2f, 0x32, 0x21, 0x15, 
  0x45, 0x6d, 0x79, 0x4a, 0x20, 0x55, 0xe0, 0x05, 0x2f, 0xe6, 0x0d, 0xe3, 
  0x22, 0x3e, 0xe7, 0x21, 0xf8, 0xe0, 0x2b, 0x1e, 0x01, 0xe9, 0xf8, 0x13, 
  0xdf, 0xc0, 0xce, 0xc7, 0xdd, 0xc5, 0xf1, 0x12, 0xfb, 0x18, 0xe9, 0xde, 
  0xde, 0xdd, 0xc0, 0xc2, 0xb2, 0xc7, 0xb2, 0xd0, 0xc3, 0xd5, 0xf4, 0xd8, 
  0xcc, 0x16, 0xfc, 0xf3, 0xfb, 0x1b, 0xf0, 0x07, 0xe7, 0x12, 0x7f, 0x2e, 
  0x2e, 0xfe, 0x12, 0xe2, 0x3e, 0xde, 0xd8, 0x20, 0xe4, 0x4d, 0xef, 0x04, 
  0xe3, 0xd9, 0xfc, 0xe4, 0xcd, 0xfa, 0xe9, 0xdf, 0xf3, 0xee, 0xc9, 0xff, 
  0xae, 0xf1, 0x05, 0xcb, 0xbd, 0xb7, 0x09, 0x1c, 0xe3, 0xc9, 0xcd, 0xcf, 
  0xc2, 0x47, 0x10, 0x3d, 0xee, 0xef, 0x53, 0x46, 0xe3, 0x38, 0xd0, 0x20, 
  0x5d, 0x29, 0xd1, 0xea, 0x28, 0x06, 0xe8, 0xe1, 0xf3, 0xbf, 0xe4, 0xd7, 
  0x24, 0x09, 0xd0, 0xc0, 0xd4, 0xc5, 0xbb, 0xbc, 0xfe, 0xcd, 0xeb, 0xdd, 
  0xe3, 0xb7, 0xfc, 0xd5, 0xea, 0xf2, 0xd2, 0x01, 0xe8, 0x1b, 0xf4, 0x06, 
  0x13, 0x3d, 0xf9, 0x36, 0xfa, 0xcc, 0xc0, 0xfa, 0x36, 0x15, 0x1a, 0x0c, 
  0x11, 0xec, 0xa7, 0xe3, 0xc1, 0xb7, 0x0a, 0x9f, 0x06, 0xba, 0xf1, 0x1e, 
  0xed, 0x48, 0xdb, 0xe6, 0xec, 0x05, 0xba, 0xca, 0x0e, 0xe1, 0xfb, 0x4a, 
  0x51, 0x43, 0xef, 0xe4, 0x54, 0x6f, 0xf7, 0xd1, 0x5b, 0x0d, 0x7f, 0x07, 
  0x33, 0x2e, 0xf0, 0xe7, 0xbb, 0xbf, 0xe6, 0xe6, 0xd5, 0xeb, 0x01, 0xa5, 
  0xf8, 0xe3, 0xd4, 0xfa, 0xcc, 0xed, 0xf5, 0xc2, 0xf0, 0xf7, 0x0e, 0xf4, 
  0xe0, 0xdc, 0xe4, 0x33, 0x23, 0xe3, 0xcc, 0xfb, 0x58, 0x28, 0x47, 0x0f, 
  0x3a, 0x5d, 0x20, 0x4b, 0x2f, 0x03, 0xf5, 0xe5, 0xcc, 0xc5, 0xcb, 0xc9, 
  0xbf, 0xe7, 0xc2, 0xd6, 0xae, 0xfc, 0x0a, 0x39, 0x08, 0x2a, 0x0f, 0xe1, 
  0xf0, 0x0c, 0x12, 0x09, 0xaf, 0x3a, 0x0d, 0x3a, 0xee, 0x25, 0x1e, 0x49, 
  0xdc, 0xea, 0xbe, 0x07, 0xd7, 0xe9, 0x6b, 0x4c, 0x96, 0xf9, 0xff, 0xff, 
  0x04, 0x00, 0x00, 0x00, 0x20, 0x00, 0x00, 0x00, 0x6e, 0x19, 0x00, 0x00, 
  0x45, 0xef, 0xff, 0xff, 0xc5, 0x09, 0x00, 0x00, 0x30, 0x10, 0x00, 0x00, 
  0xe7, 0x1e, 0x00, 0x00, 0x0f, 0xfd, 0xff, 0xff, 0xc8, 0x00, 0x00, 0x00, 
  0x95, 0xff, 0xff, 0xff, 0xc2, 0xf9, 0xff, 0xff, 0x04, 0x00, 0x00, 0x00, 
  0x80, 0x01, 0x00, 0x00, 0x6a, 0x3f, 0xc8, 0x6d, 0xea, 0xd3, 0xef, 0x20, 
  0x67, 0x25, 0x89, 0x0a, 0xcb, 0x02, 0x44, 0xb8, 0x7f, 0xc5, 0x9e, 0x43, 
  0xc4, 0xc2, 0x30, 0x00, 0xe5, 0x7a, 0x6d, 0x17, 0xd2, 0xa2, 0xc0, 0x2d, 
  0xf1, 0xec, 0x11, 0xe1, 0x17, 0x07, 0x09, 0x7f, 0x6b, 0xd1, 0x75, 0xa4, 
  0xa8, 0x9b, 0xd6, 0xf8, 0xff, 0x0c, 0x35, 0xec, 0xe9, 0xc3, 0xf7, 0x26, 
  0x4e, 0xf8, 0x7f, 0xfc, 0xfe, 0xa6, 0xf7, 0x58, 0xea, 0x23, 0x5e, 0xc3, 
  0xc8, 0xcf, 0x0d, 0xf6, 0x14, 0x9e, 0x7f, 0xd8, 0x15, 0xcd, 0xc0, 0x2d, 
  0xec, 0xec, 0x30, 0x11, 0xd8, 0xbb, 0xc1, 0x18, 0xda, 0x0f, 0x11, 0xd3, 
  0xf5, 0xc5, 0x54, 0x21, 0xff, 0x0b, 0x10, 0xfa, 0xf4, 0xfe, 0x07, 0x08, 
  0xf8, 0xff, 0x1c, 0xf6, 0xf9, 0x00, 0x20, 0x00, 0x06, 0x7f, 0x37, 0xf5, 
  0xf5, 0x02, 0x03, 0x03, 0xee, 0x20, 0x42, 0x11, 0xcc, 0xd5, 0xae, 0x3b, 
  0xf6, 0x03, 0x0e, 0xe4, 0xee, 0x0c, 0xa0, 0xf5, 0xfe, 0x7f, 0x32, 0xfc, 
  0xe9, 0xe5, 0xa0, 0x1d, 0x7f, 0x45, 0xdc, 0x46, 0xe5, 0xd4, 0x0e, 0xfa, 
  0x3b, 0x26, 0xee, 0xdc, 0xf5, 0xe0, 0x0c, 0x0c, 0x1b, 0xd1, 0xab, 0x5d, 
  0x04, 0xfe, 0xe7, 0xcc, 0xee, 0x55, 0xba, 0xa1, 0xe2, 0x1c, 0xf7, 0x0d, 
  0x38, 0x7f, 0xdc, 0x01, 0x26, 0x01, 0xee, 0x18, 0x02, 0xe6, 0x9e, 0xcb, 
  0x4a, 0xfa, 0x21, 0x07, 0x2b, 0xc6, 0xf2, 0x47, 0x1a, 0xe2, 0x0e, 0x13, 
  0xf5, 0xf2, 0x8a, 0x4f, 0x7f, 0xde, 0xa0, 0x39, 0x02, 0xc2, 0xe1, 0x47, 
  0x1e, 0x39, 0xb7, 0xeb, 0x48, 0xb4, 0xbc, 0x68, 0x0a, 0x40, 0x4c, 0x1f, 
  0xf9, 0xec, 0x84, 0xcf, 0x35, 0x46, 0xf8, 0x14, 0x14, 0xca, 0x81, 0x78, 
  0x18, 0x33, 0xf1, 0x42, 0xe0, 0xbc, 0xdc, 0xf7, 0xbb, 0xc1, 0x10, 0xea, 
  0xce, 0xc7, 0xeb, 0xc6, 0xa5, 0x8e, 0xcf, 0x1c, 0xd9, 0x66, 0xe6, 0xfe, 
  0xa1, 0xdb, 0xf2, 0x7f, 0xe0, 0xd1, 0x9c, 0x53, 0x66, 0xf9, 0x04, 0xe9, 
  0xf0, 0xea, 0xd4, 0x08, 0x7f, 0xb0, 0x02, 0x16, 0x03, 0xe8, 0x97, 0x40, 
  0xfa, 0xb9, 0xe9, 0xf3, 0xf1, 0x7f, 0xd2, 0x0e, 0xe5, 0xd8, 0xff, 0x06, 
  0x27, 0xe7, 0xdc, 0xf5, 0xdf, 0x0c, 0xc0, 0x01, 0x1b, 0x32, 0x0c, 0x0a, 
  0x04, 0xc8, 0xb0, 0x24, 0x05, 0x3e, 0x35, 0xdd, 0xe6, 0xea, 0xf3, 0xe8, 
  0x0f, 0x7f, 0x42, 0xec, 0xef, 0xd5, 0xed, 0xe3, 0xf6, 0x40, 0x5e, 0xef, 
  0x25, 0xc7, 0xf1, 0x04, 0x3a, 0x12, 0xd7, 0xe3, 0xf8, 0xff, 0x0c, 0xf8, 
  0x1d, 0x7f, 0xe2, 0xf5, 0xfb, 0xff, 0x13, 0xfb, 0x6d, 0xfe, 0xc7, 0x21, 
  0x06, 0xf1, 0x16, 0xf5, 0x24, 0x23, 0x58, 0xe5, 0xf9, 0xed, 0xf6, 0x28, 
  0xf3, 0x03, 0x7f, 0xe6, 0xf4, 0xd3, 0x1b, 0x15, 0xe2, 0xbc, 0x5f, 0xd2, 
  0xbc, 0xdd, 0x2d, 0x12, 0x4e, 0xfb, 0xff, 0xff, 0x04, 0x00, 0x00, 0x00, 
  0x40, 0x00, 0x00, 0x00, 0x7d, 0x02, 0x00, 0x00, 0x7a, 0x03, 0x00, 0x00, 
  0x83, 0x00, 0x00, 0x00, 0xfa, 0x00, 0x00, 0x00, 0x74, 0x00, 0x00, 0x00, 
  0xc6, 0x03, 0x00, 0x00, 0xc1, 0x05, 0x00, 0x00, 0xbf, 0x05, 0x00, 0x00, 
  0xb3, 0xff, 0xff, 0xff, 0x98, 0x00, 0x00, 0x00, 0x4e, 0xf9, 0xff, 0xff, 
  0x8b, 0x09, 0x00, 0x00, 0xdb, 0x01, 0x00, 0x00, 0xd4, 0x01, 0x00, 0x00, 
  0x69, 0x00, 0x00, 0x00, 0xc4, 0x02, 0x00, 0x00, 0x9a, 0xfb, 0xff, 0xff, 
  0x04, 0x00, 0x00, 0x00, 0x20, 0x03, 0x00, 0x00, 0xf7, 0x01, 0x1c, 0x2d, 
  0x2a, 0xf5, 0xe5, 0xef, 0xff, 0x03, 0x02, 0xf3, 0xe4, 0x1a, 0xe5, 0x2c, 
  0xf7, 0x32, 0x34, 0x0e, 0x23, 0x07, 0xe8, 0x09, 0xf4, 0x01, 0x24, 0xf3, 
  0xfc, 0x0c, 0xe1, 0x3e, 0xf7, 0x28, 0x28, 0x06, 0x4d, 0xf5, 0xf6, 0x10, 
  0x00, 0x08, 0xec, 0xfb, 0xeb, 0x41, 0x0b, 0x0d, 0xfb, 0xfa, 0x0e, 0xeb, 
  0x2e, 0xed, 0x03, 0xfa, 0xed, 0xf2, 0x0f, 0xf4, 0xf0, 0xf9, 0xfa, 0x1b, 
  0xf3, 0xf6, 0x14, 0x09, 0x61, 0x0b, 0xec, 0xfc, 0xf8, 0xfa, 0x05, 0xe8, 
  0x03, 0x17, 0xef, 0x06, 0xf8, 0x04, 0xf1, 0xf4, 0x05, 0x0b, 0xfa, 0x03, 
  0x00, 0xf7, 0x08, 0xf4, 0x1b, 0x09, 0xde, 0xfd, 0xf2, 0x23, 0x13, 0xf6, 
  0x37, 0x08, 0xef, 0xf8, 0xfb, 0xff, 0x06, 0xf5, 0xff, 0x10, 0xdc, 0xed, 
  0xe4, 0x27, 0xfc, 0x19, 0x2f, 0x17, 0xe6, 0xed, 0xf4, 0xf1, 0x17, 0xf9, 
  0x1b, 0x0e, 0xef, 0xf5, 0xff, 0x19, 0xfb, 0x14, 0xf1, 0x06, 0xfc, 0xfb, 
  0xf0, 0x04, 0x13, 0xf6, 0x12, 0x4f, 0xfa, 0x04, 0x03, 0xf9, 0x02, 0x07, 
  0x04, 0x13, 0xfc, 0xf0, 0xf2, 0xf7, 0x0a, 0xf0, 0x0a, 0x30, 0xf2, 0xfc, 
  0xf9, 0xfb, 0xfe, 0xee, 0x27, 0xfe, 0x14, 0xfb, 0x00, 0xf1, 0xf8, 0xf6, 
  0x10, 0x38, 0xfc, 0xe8, 0x03, 0xef, 0x0a, 0x01, 0xe8, 0x02, 0x0d, 0xf1, 
  0xfa, 0xea, 0x01, 0xef, 0x03, 0x38, 0xe1, 0xe5, 0x01, 0xfd, 0x05, 0xed, 
  0x1a, 0xf9, 0x06, 0xf3, 0xf9, 0xf5, 0x12, 0xed, 0x09, 0x14, 0xe8, 0x02, 
  0xee, 0x0e, 0x04, 0x19, 0x0f, 0xfc, 0xef, 0xf3, 0xf2, 0xf6, 0x1f, 0xe3, 
  0x0e, 0x5d, 0xf1, 0x0c, 0xee, 0x34, 0x35, 0x08, 0x1c, 0xf9, 0xe9, 0xfd, 
  0xff, 0xf7, 0x28, 0xe2, 0xf7, 0x49, 0xec, 0x2e, 0xfd, 0x17, 0x22, 0xf8, 
  0x30, 0xff, 0xf6, 0xf4, 0xf5, 0xf7, 0x07, 0xe4, 0xf0, 0x59, 0x17, 0x0d, 
  0xf6, 0x0c, 0x10, 0xf5, 0xea, 0x05, 0xee, 0xf2, 0xee, 0xfe, 0xff, 0xf7, 
  0xfc, 0x1f, 0xf6, 0xf2, 0xfd, 0xf0, 0x0a, 0xf7, 0x02, 0xf4, 0xfc, 0xf4, 
  0xf4, 0xec, 0xfa, 0xfd, 0xff, 0x2c, 0x17, 0x08, 0x04, 0x0e, 0xf5, 0xf9, 
  0xfe, 0xf3, 0x05, 0x11, 0xf3, 0xfe, 0x23, 0xfd, 0x00, 0x43, 0x1c, 0xfc, 
  0x00, 0x14, 0x1d, 0x01, 0xe6, 0x00, 0x02, 0xf8, 0xf9, 0xf4, 0xf4, 0xf3, 
  0x08, 0xed, 0xf1, 0xf4, 0xee, 0xea, 0x08, 0xfb, 0x7f, 0xfe, 0x03, 0xfa, 
  0xef, 0xf7, 0x06, 0xfc, 0x01, 0x1a, 0x07, 0x0d, 0xfc, 0x00, 0x13, 0x06, 
  0x3e, 0x06, 0x07, 0xf6, 0xf8, 0xfc, 0xf8, 0xf6, 0x0a, 0x5c, 0x2c, 0xf8, 
  0x1c, 0x16, 0x03, 0xf0, 0xed, 0xef, 0x00, 0xe9, 0xfe, 0xfa, 0x0b, 0xf0, 
  0xfc, 0x17, 0x04, 0x02, 0xfd, 0xfe, 0x15, 0x17, 0x16, 0x0a, 0xf4, 0xec, 
  0x03, 0x07, 0x26, 0xf7, 0xfa, 0xff, 0xdb, 0xf5, 0xfe, 0xed, 0xf6, 0x0d, 
  0x23, 0xf6, 0xf4, 0x00, 0xef, 0xfb, 0x15, 0xfe, 0xed, 0x01, 0xf5, 0x1b, 
  0x2f, 0xf2, 0xf4, 0xef, 0xe9, 0xff, 0x0e, 0x09, 0xf3, 0x0e, 0xef, 0xfc, 
  0x16, 0xfe, 0x2d, 0xe9, 0x1a, 0xe4, 0xec, 0xe6, 0xfd, 0xfa, 0x25, 0x01, 
  0x12, 0xed, 0xf0, 0x05, 0x0b, 0x07, 0x2b, 0xf4, 0x18, 0xf6, 0xf0, 0xee, 
  0xcf, 0xf1, 0x1f, 0x07, 0xf4, 0x10, 0x06, 0xfd, 0x14, 0xeb, 0xed, 0xee, 
  0x17, 0xf9, 0xfa, 0xfb, 0xee, 0x11, 0x10, 0xf6, 0x0c, 0xf4, 0x06, 0x18, 
  0x0f, 0x03, 0xfc, 0xe8, 0x17, 0x07, 0xf3, 0xfc, 0xc2, 0xf9, 0x05, 0xfd, 
  0x08, 0x04, 0xf3, 0x06, 0xf0, 0xef, 0x19, 0xf4, 0x01, 0xf7, 0x01, 0x08, 
  0xf8, 0xec, 0x10, 0xf9, 0xf7, 0x09, 0xfe, 0x0e, 0xe5, 0xf0, 0x1d, 0x02, 
  0x27, 0xf5, 0x02, 0x03, 0xec, 0xf8, 0x15, 0x11, 0xf8, 0x0d, 0xed, 0x15, 
  0xf2, 0xeb, 0x30, 0x00, 0x29, 0xf3, 0xf9, 0xfa, 0xf2, 0xea, 0x25, 0xf7, 
  0xfd, 0xf6, 0xee, 0x0d, 0xf3, 0xe9, 0x2f, 0xf3, 0xfa, 0xf3, 0xf5, 0xfa, 
  0x0c, 0x03, 0x12, 0xf7, 0xfd, 0xf9, 0xf0, 0x15, 0xfd, 0xd8, 0x00, 0xfe, 
  0xf2, 0xf6, 0xf5, 0x06, 0xff, 0x01, 0xef, 0x23, 0x12, 0xf5, 0x00, 0x06, 
  0xf6, 0xe2, 0x0a, 0xf1, 0x01, 0xfe, 0xfb, 0x13, 0xdc, 0xf4, 0xf6, 0x23, 
  0xf5, 0x15, 0xf8, 0x13, 0xf1, 0xd7, 0x21, 0x10, 0x11, 0x07, 0x06, 0x04, 
  0x26, 0xfc, 0xed, 0x06, 0xf9, 0xfb, 0xf6, 0x02, 0xf6, 0xdc, 0x18, 0xfb, 
  0xfe, 0xff, 0x01, 0xfc, 0xf6, 0xfd, 0xf9, 0x04, 0xfc, 0xff, 0xf8, 0xff, 
  0xf8, 0xde, 0x1e, 0xfb, 0x15, 0xf9, 0x02, 0xff, 0xeb, 0x0a, 0x07, 0x05, 
  0xfc, 0x15, 0xe4, 0x34, 0x00, 0xda, 0x1e, 0xf2, 0x22, 0xec, 0xe6, 0xe7, 
  0xe8, 0xf1, 0x3c, 0xf7, 0x01, 0x02, 0xe9, 0x04, 0x07, 0xdc, 0x13, 0xe5, 
  0x1a, 0xee, 0xf4, 0xf4, 0xeb, 0x02, 0x14, 0x0a, 0x0a, 0x1b, 0xf9, 0x16, 
  0x04, 0xd0, 0xe8, 0xe2, 0x15, 0xfd, 0xff, 0x00, 0x01, 0x0d, 0x0b, 0x1a, 
  0x15, 0xff, 0xef, 0x16, 0x17, 0xeb, 0x20, 0xf2, 0x09, 0x0c, 0xfd, 0x0a, 
  0x00, 0x0c, 0x00, 0x16, 0x07, 0x15, 0xf3, 0x0c, 0x07, 0xe0, 0xef, 0x0e, 
  0x05, 0x0c, 0xfa, 0xf9, 0x10, 0x00, 0x12, 0xfe, 0x10, 0xfa, 0xfc, 0x21, 
  0xf6, 0xe5, 0xe8, 0x0f, 0x00, 0xf7, 0xf4, 0xf3, 0x2a, 0x0b, 0x02, 0xf8, 
  0x10, 0xf3, 0xfc, 0xf5, 0x15, 0x09, 0x2e, 0xf3, 0x2e, 0xf7, 0xfe, 0xf5, 
  0xbe, 0x05, 0x00, 0x00, 0x0a, 0x0e, 0xf6, 0x0a, 0x0f, 0xec, 0x07, 0xfa, 
  0xf1, 0xfb, 0xf9, 0xfb, 0xea, 0xfa, 0xfd, 0xfa, 0x01, 0x17, 0xfc, 0xf4, 
  0x10, 0xde, 0xd0, 0xff, 0xf1, 0x03, 0x05, 0x09, 0x06, 0x10, 0xfa, 0x19, 
  0xfa, 0x13, 0x07, 0x0e, 0xf8, 0xf5, 0x10, 0xf5, 0x0b, 0xfd, 0xfb, 0xf1, 
  0xe1, 0xfc, 0x17, 0x24, 0x0f, 0x0e, 0xfc, 0x17, 0xfa, 0xf3, 0x4b, 0xfa, 
  0x0f, 0x01, 0x06, 0xee, 0xf2, 0x04, 0xf0, 0xf8, 0x14, 0x02, 0xef, 0x16, 
  0x1d, 0x09, 0x2d, 0xea, 0xc6, 0xfe, 0xff, 0xff, 0x04, 0x00, 0x00, 0x00, 
  0x08, 0x00, 0x00, 0x00, 0x1d, 0x00, 0x00, 0x00, 0xfc, 0xff, 0xff, 0xff, 
  0xda, 0xfe, 0xff, 0xff, 0x04, 0x00, 0x00, 0x00, 0x08, 0x00, 0x00, 0x00, 
  0xff, 0xff, 0xff, 0xff, 0x90, 0x01, 0x00, 0x00, 0xee, 0xfe, 0xff, 0xff, 
  0x04, 0x00, 0x00, 0x00, 0x10, 0x00, 0x00, 0x00, 0x01, 0x00, 0x00, 0x00, 
  0x32, 0x00, 0x00, 0x00, 0x01, 0x00, 0x00, 0x00, 0x10, 0x00, 0x00, 0x00, 
  0x0a, 0xff, 0xff, 0xff, 0x04, 0x00, 0x00, 0x00, 0x10, 0x00, 0x00, 0x00, 
  0x01, 0x00, 0x00, 0x00, 0x01, 0x00, 0x00, 0x00, 0x32, 0x00, 0x00, 0x00, 
  0x08, 0x00, 0x00, 0x00, 0x26, 0xff, 0xff, 0xff, 0x04, 0x00, 0x00, 0x00, 
  0x10, 0x00, 0x00, 0x00, 0x01, 0x00, 0x00, 0x00, 0x63, 0x00, 0x00, 0x00, 
  0x01, 0x00, 0x00, 0x00, 0x08, 0x00, 0x00, 0x00, 0x42, 0xff, 0xff, 0xff, 
  0x04, 0x00, 0x00, 0x00, 0x10, 0x00, 0x00, 0x00, 0x01, 0x00, 0x00, 0x00, 
  0x01, 0x00, 0x00, 0x00, 0x63, 0x00, 0x00, 0x00, 0x28, 0x00, 0x00, 0x00, 
  0x90, 0xf0, 0xff, 0xff, 0x94, 0xf0, 0xff, 0xff, 0x0f, 0x00, 0x00, 0x00, 
  0x4d, 0x4c, 0x49, 0x52, 0x20, 0x43, 0x6f, 0x6e, 0x76, 0x65, 0x72, 0x74, 
  0x65, 0x64, 0x2e, 0x00, 0x01, 0x00, 0x00, 0x00, 0x14, 0x00, 0x00, 0x00, 
  0x00, 0x00, 0x0e, 0x00, 0x18, 0x00, 0x14, 0x00, 0x10, 0x00, 0x0c, 0x00, 
  0x08, 0x00, 0x04, 0x00, 0x0e, 0x00, 0x00, 0x00, 0x14, 0x00, 0x00, 0x00, 
  0x1c, 0x00, 0x00, 0x00, 0x84, 0x02, 0x00, 0x00, 0x88, 0x02, 0x00, 0x00, 
  0x8c, 0x02, 0x00, 0x00, 0x04, 0x00, 0x00, 0x00, 0x6d, 0x61, 0x69, 0x6e, 
  0x00, 0x00, 0x00, 0x00, 0x0b, 0x00, 0x00, 0x00, 0x48, 0x02, 0x00, 0x00, 
  0xec, 0x01, 0x00, 0x00, 0xb8, 0x01, 0x00, 0x00, 0x68, 0x01, 0x00, 0x00, 
  0x44, 0x01, 0x00, 0x00, 0x00, 0x01, 0x00, 0x00, 0xdc, 0x00, 0x00, 0x00, 
  0x9c, 0x00, 0x00, 0x00, 0x78, 0x00, 0x00, 0x00, 0x40, 0x00, 0x00, 0x00, 
  0x04, 0x00, 0x00, 0x00, 0x4a, 0xfe, 0xff, 0xff, 0x1c, 0x00, 0x00, 0x00, 
  0x00, 0x00, 0x00, 0x09, 0x1c, 0x00, 0x00, 0x00, 0x20, 0x00, 0x00, 0x00, 
  0x04, 0x00, 0x00, 0x00, 0x00, 0x00, 0x06, 0x00, 0x08, 0x00, 0x04, 0x00, 
  0x06, 0x00, 0x00, 0x00, 0x00, 0x00, 0x80, 0x3f, 0x01, 0x00, 0x00, 0x00, 
  0x16, 0x00, 0x00, 0x00, 0x01, 0x00, 0x00, 0x00, 0x15, 0x00, 0x00, 0x00, 
  0x82, 0xfe, 0xff, 0xff, 0x14, 0x00, 0x00, 0x00, 0x00, 0x00, 0x00, 0x08, 
  0x10, 0x00, 0x00, 0x00, 0x14, 0x00, 0x00, 0x00, 0x03, 0x00, 0x00, 0x00, 
  0x68, 0xf1, 0xff, 0xff, 0x01, 0x00, 0x00, 0x00, 0x15, 0x00, 0x00, 0x00, 
  0x03, 0x00, 0x00, 0x00, 0x14, 0x00, 0x00, 0x00, 0x07, 0x00, 0x00, 0x00, 
  0x06, 0x00, 0x00, 0x00, 0x5a, 0xfe, 0xff, 0xff, 0x08, 0x00, 0x00, 0x00, 
  0x0c, 0x00, 0x00, 0x00, 0x01, 0x00, 0x00, 0x00, 0x14, 0x00, 0x00, 0x00, 
  0x02, 0x00, 0x00, 0x00, 0x13, 0x00, 0x00, 0x00, 0x05, 0x00, 0x00, 0x00, 
  0xd6, 0xfe, 0xff, 0xff, 0x14, 0x00, 0x00, 0x00, 0x00, 0x00, 0x00, 0x05, 
  0x20, 0x00, 0x00, 0x00, 0x24, 0x00, 0x00, 0x00, 0x02, 0x00, 0x00, 0x00, 
  0x42, 0xff, 0xff, 0xff, 0x02, 0x00, 0x00, 0x00, 0x01, 0x00, 0x00, 0x00, 
  0x02, 0x00, 0x00, 0x00, 0x01, 0x00, 0x00, 0x00, 0x01, 0x00, 0x00, 0x00, 
  0x13, 0x00, 0x00, 0x00, 0x01, 0x00, 0x00, 0x00, 0x12, 0x00, 0x00, 0x00, 
  0xb6, 0xfe, 0xff, 0xff, 0x08, 0x00, 0x00, 0x00, 0x0c, 0x00, 0x00, 0x00, 
  0x01, 0x00, 0x00, 0x00, 0x12, 0x00, 0x00, 0x00, 0x02, 0x00, 0x00, 0x00, 
  0x11, 0x00, 0x00, 0x00, 0x04, 0x00, 0x00, 0x00, 0x32, 0xff, 0xff, 0xff, 
  0x14, 0x00, 0x00, 0x00, 0x00, 0x00, 0x00, 0x01, 0x1c, 0x00, 0x00, 0x00, 
  0x20, 0x00, 0x00, 0x00, 0x01, 0x00, 0x00, 0x00, 0x24, 0xff, 0xff, 0xff, 
  0x00, 0x00, 0x00, 0x01, 0x01, 0x00, 0x00, 0x00, 0x01, 0x00, 0x00, 0x00, 
  0x01, 0x00, 0x00, 0x00, 0x11, 0x00, 0x00, 0x00, 0x03, 0x00, 0x00, 0x00, 
  0x10, 0x00, 0x00, 0x00, 0x09, 0x00, 0x00, 0x00, 0x08, 0x00, 0x00, 0x00, 
  0x16, 0xff, 0xff, 0xff, 0x08, 0x00, 0x00, 0x00, 0x0c, 0x00, 0x00, 0x00, 
  0x01, 0x00, 0x00, 0x00, 0x10, 0x00, 0x00, 0x00, 0x02, 0x00, 0x00, 0x00, 
  0x0f, 0x00, 0x00, 0x00, 0x03, 0x00, 0x00, 0x00, 0x92, 0xff, 0xff, 0xff, 
  0x24, 0x00, 0x00, 0x00, 0x00, 0x00, 0x00, 0x05, 0x30, 0x00, 0x00, 0x00, 
  0x34, 0x00, 0x00, 0x00, 0x02, 0x00, 0x00, 0x00, 0x00, 0x00, 0x0e, 0x00, 
  0x14, 0x00, 0x00, 0x00, 0x10, 0x00, 0x0c, 0x00, 0x08, 0x00, 0x04, 0x00, 
  0x0e, 0x00, 0x00, 0x00, 0x02, 0x00, 0x00, 0x00, 0x01, 0x00, 0x00, 0x00, 
  0x02, 0x00, 0x00, 0x00, 0x01, 0x00, 0x00, 0x00, 0x01, 0x00, 0x00, 0x00, 
  0x0f, 0x00, 0x00, 0x00, 0x01, 0x00, 0x00, 0x00, 0x0e, 0x00, 0x00, 0x00, 
  0x82, 0xff, 0xff, 0xff, 0x08, 0x00, 0x00, 0x00, 0x0c, 0x00, 0x00, 0x00, 
  0x01, 0x00, 0x00, 0x00, 0x0e, 0x00, 0x00, 0x00, 0x02, 0x00, 0x00, 0x00, 
  0x0d, 0x00, 0x00, 0x00, 0x02, 0x00, 0x00, 0x00, 0x00, 0x00, 0x0e, 0x00, 
  0x18, 0x00, 0x14, 0x00, 0x10, 0x00, 0x0c, 0x00, 0x0b, 0x00, 0x04, 0x00, 
  0x0e, 0x00, 0x00, 0x00, 0x20, 0x00, 0x00, 0x00, 0x00, 0x00, 0x00, 0x01, 
  0x28, 0x00, 0x00, 0x00, 0x2c, 0x00, 0x00, 0x00, 0x01, 0x00, 0x00, 0x00, 
  0x0c, 0x00, 0x10, 0x00, 0x00, 0x00, 0x0c, 0x00, 0x08, 0x00, 0x07, 0x00, 
  0x0c, 0x00, 0x00, 0x00, 0x00, 0x00, 0x00, 0x01, 0x01, 0x00, 0x00, 0x00, 
  0x01, 0x00, 0x00, 0x00, 0x01, 0x00, 0x00, 0x00, 0x0d, 0x00, 0x00, 0x00, 
  0x03, 0x00, 0x00, 0x00, 0x0c, 0x00, 0x00, 0x00, 0x0b, 0x00, 0x00, 0x00, 
  0x0a, 0x00, 0x00, 0x00, 0x00, 0x00, 0x0a, 0x00, 0x0c, 0x00, 0x00, 0x00, 
  0x08, 0x00, 0x04, 0x00, 0x0a, 0x00, 0x00, 0x00, 0x08, 0x00, 0x00, 0x00, 
  0x0c, 0x00, 0x00, 0x00, 0x01, 0x00, 0x00, 0x00, 0x0c, 0x00, 0x00, 0x00, 
  0x02, 0x00, 0x00, 0x00, 0x00, 0x00, 0x00, 0x00, 0x01, 0x00, 0x00, 0x00, 
  0x01, 0x00, 0x00, 0x00, 0x16, 0x00, 0x00, 0x00, 0x01, 0x00, 0x00, 0x00, 
  0x00, 0x00, 0x00, 0x00, 0x17, 0x00, 0x00, 0x00, 0xe8, 0x0c, 0x00, 0x00, 
  0x78, 0x0c, 0x00, 0x00, 0x24, 0x0c, 0x00, 0x00, 0xcc, 0x0b, 0x00, 0x00, 
  0x74, 0x0b, 0x00, 0x00, 0x28, 0x0b, 0x00, 0x00, 0xac, 0x0a, 0x00, 0x00, 
  0x40, 0x0a, 0x00, 0x00, 0x14, 0x09, 0x00, 0x00, 0xe8, 0x07, 0x00, 0x00, 
  0x1c, 0x07, 0x00, 0x00, 0x50, 0x06, 0x00, 0x00, 0xcc, 0x05, 0x00, 0x00, 
  0xe0, 0x04, 0x00, 0x00, 0x5c, 0x04, 0x00, 0x00, 0xe0, 0x03, 0x00, 0x00, 
  0x5c, 0x03, 0x00, 0x00, 0x60, 0x02, 0x00, 0x00, 0xdc, 0x01, 0x00, 0x00, 
  0x60, 0x01, 0x00, 0x00, 0xf4, 0x00, 0x00, 0x00, 0x70, 0x00, 0x00, 0x00, 
  0x04, 0x00, 0x00, 0x00, 0x8a, 0xf3, 0xff, 0xff, 0x00, 0x00, 0x00, 0x01, 
  0x14, 0x00, 0x00, 0x00, 0x30, 0x00, 0x00, 0x00, 0x17, 0x00, 0x00, 0x00, 
  0x00, 0x00, 0x00, 0x09, 0x44, 0x00, 0x00, 0x00, 0x74, 0xf3, 0xff, 0xff, 
  0x08, 0x00, 0x00, 0x00, 0x10, 0x00, 0x00, 0x00, 0x01, 0x00, 0x00, 0x00, 
  0x80, 0xff, 0xff, 0xff, 0xff, 0xff, 0xff, 0xff, 0x01, 0x00, 0x00, 0x00, 
  0x00, 0x00, 0x80, 0x3b, 0x19, 0x00, 0x00, 0x00, 0x53, 0x74, 0x61, 0x74, 
  0x65, 0x66, 0x75, 0x6c, 0x50, 0x61, 0x72, 0x74, 0x69, 0x74, 0x69, 0x6f, 
  0x6e, 0x65, 0x64, 0x43, 0x61, 0x6c, 0x6c, 0x3a, 0x30, 0x00, 0x00, 0x00, 
  0x02, 0x00, 0x00, 0x00, 0x01, 0x00, 0x00, 0x00, 0x02, 0x00, 0x00, 0x00, 
  0xf2, 0xf3, 0xff, 0xff, 0x00, 0x00, 0x00, 0x01, 0x14, 0x00, 0x00, 0x00, 
  0x30, 0x00, 0x00, 0x00, 0x16, 0x00, 0x00, 0x00, 0x00, 0x00, 0x00, 0x09, 
  0x5c, 0x00, 0x00, 0x00, 0xdc, 0xf3, 0xff, 0xff, 0x08, 0x00, 0x00, 0x00, 
  0x10, 0x00, 0x00, 0x00, 0x01, 0x00, 0x00, 0x00, 0xda, 0xff, 0xff, 0xff, 
  0xff, 0xff, 0xff, 0xff, 0x01, 0x00, 0x00, 0x00, 0x6e, 0xf0, 0x97, 0x3d, 
  0x32, 0x00, 0x00, 0x00, 0x73, 0x65, 0x71, 0x75, 0x65, 0x6e, 0x74, 0x69, 
  0x61, 0x6c, 0x2f, 0x79, 0x5f, 0x70, 0x72, 0x65, 0x64, 0x2f, 0x4d, 0x61, 
  0x74, 0x4d, 0x75, 0x6c, 0x3b, 0x73, 0x65, 0x71, 0x75, 0x65, 0x6e, 0x74, 
  0x69, 0x61, 0x6c, 0x2f, 0x79, 0x5f, 0x70, 0x72, 0x65, 0x64, 0x2f, 0x42, 
  0x69, 0x61, 0x73, 0x41, 0x64, 0x64, 0x00, 0x00, 0x02, 0x00, 0x00, 0x00, 
  0x01, 0x00, 0x00, 0x00, 0x02, 0x00, 0x00, 0x00, 0x72, 0xf4, 0xff, 0xff, 
  0x00, 0x00, 0x00, 0x01, 0x14, 0x00, 0x00, 0x00, 0x30, 0x00, 0x00, 0x00, 
  0x15, 0x00, 0x00, 0x00, 0x00, 0x00, 0x00, 0x09, 0x44, 0x00, 0x00, 0x00, 
  0x5c, 0xf4, 0xff, 0xff, 0x08, 0x00, 0x00, 0x00, 0x10, 0x00, 0x00, 0x00, 
  0x01, 0x00, 0x00, 0x00, 0x80, 0xff, 0xff, 0xff, 0xff, 0xff, 0xff, 0xff, 
  0x01, 0x00, 0x00, 0x00, 0xac, 0xc3, 0xcf, 0x3c, 0x1a, 0x00, 0x00, 0x00, 
  0x73, 0x65, 0x71, 0x75, 0x65, 0x6e, 0x74, 0x69, 0x61, 0x6c, 0x2f, 0x66, 
  0x6c, 0x61, 0x74, 0x74, 0x65, 0x6e, 0x2f, 0x52, 0x65, 0x73, 0x68, 0x61, 
  0x70, 0x65, 0x00, 0x00, 0x02, 0x00, 0x00, 0x00, 0x01, 0x00, 0x00, 0x00, 
  0x90, 0x01, 0x00, 0x00, 0xda, 0xf4, 0xff, 0xff, 0x00, 0x00, 0x00, 0x01, 
  0x14, 0x00, 0x00, 0x00, 0x30, 0x00, 0x00, 0x00, 0x14, 0x00, 0x00, 0x00, 
  0x00, 0x00, 0x00, 0x09, 0x4c, 0x00, 0x00, 0x00, 0xc4, 0xf4, 0xff, 0xff, 
  0x08, 0x00, 0x00, 0x00, 0x10, 0x00, 0x00, 0x00, 0x01, 0x00, 0x00, 0x00, 
  0x80, 0xff, 0xff, 0xff, 0xff, 0xff, 0xff, 0xff, 0x01, 0x00, 0x00, 0x00, 
  0xac, 0xc3, 0xcf, 0x3c, 0x22, 0x00, 0x00, 0x00, 0x73, 0x65, 0x71, 0x75, 
  0x65, 0x6e, 0x74, 0x69, 0x61, 0x6c, 0x2f, 0x6d, 0x61, 0x78, 0x5f, 0x70, 
  0x6f, 0x6f, 0x6c, 0x69, 0x6e, 0x67, 0x31, 0x64, 0x5f, 0x31, 0x2f, 0x4d, 
  0x61, 0x78, 0x50, 0x6f, 0x6f, 0x6c, 0x00, 0x00, 0x04, 0x00, 0x00, 0x00, 
  0x01, 0x00, 0x00, 0x00, 0x19, 0x00, 0x00, 0x00, 0x01, 0x00, 0x00, 0x00, 
  0x10, 0x00, 0x00, 0x00, 0x52, 0xf5, 0xff, 0xff, 0x00, 0x00, 0x00, 0x01, 
  0x14, 0x00, 0x00, 0x00, 0x34, 0x00, 0x00, 0x00, 0x13, 0x00, 0x00, 0x00, 
  0x00, 0x00, 0x00, 0x09, 0x54, 0x00, 0x00, 0x00, 0x3c, 0xf5, 0xff, 0xff, 
  0x08, 0x00, 0x00, 0x00, 0x14, 0x00, 0x00, 0x00, 0x01, 0x00, 0x00, 0x00, 
  0x80, 0xff, 0xff, 0xff, 0xff, 0xff, 0xff, 0xff, 0x00, 0x00, 0x00, 0x00, 
  0x01, 0x00, 0x00, 0x00, 0xac, 0xc3, 0xcf, 0x3c, 0x26, 0x00, 0x00, 0x00, 
  0x73, 0x65, 0x71, 0x75, 0x65, 0x6e, 0x74, 0x69, 0x61, 0x6c, 0x2f, 0x6d, 
  0x61, 0x78, 0x5f, 0x70, 0x6f, 0x6f, 0x6c, 0x69, 0x6e, 0x67, 0x31, 0x64, 
  0x5f, 0x31, 0x2f, 0x45, 0x78, 0x70, 0x61, 0x6e, 0x64, 0x44, 0x69, 0x6d, 
  0x73, 0x31, 0x00, 0x00, 0x04, 0x00, 0x00, 0x00, 0x01, 0x00, 0x00, 0x00, 
  0x32, 0x00, 0x00, 0x00, 0x01, 0x00, 0x00, 0x00, 0x10, 0x00, 0x00, 0x00, 
  0xd2, 0xf5, 0xff, 0xff, 0x00, 0x00, 0x00, 0x01, 0x14, 0x00, 0x00, 0x00, 
  0x34, 0x00, 0x00, 0x00, 0x12, 0x00, 0x00, 0x00, 0x00, 0x00, 0x00, 0x09, 
  0xcc, 0x00, 0x00, 0x00, 0xbc, 0xf5, 0xff, 0xff, 0x08, 0x00, 0x00, 0x00, 
  0x14, 0x00, 0x00, 0x00, 0x01, 0x00, 0x00, 0x00, 0x80, 0xff, 0xff, 0xff, 
  0xff, 0xff, 0xff, 0xff, 0x00, 0x00, 0x00, 0x00, 0x01, 0x00, 0x00, 0x00, 
  0xac, 0xc3, 0xcf, 0x3c, 0x9d, 0x00, 0x00, 0x00, 0x73, 0x65, 0x71, 0x75, 
  0x65, 0x6e, 0x74, 0x69, 0x61, 0x6c, 0x2f, 0x63, 0x6f, 0x6e, 0x76, 0x31, 
  0x64, 0x5f, 0x31, 0x2f, 0x52, 0x65, 0x6c, 0x75, 0x3b, 0x73, 0x65, 0x71, 
  0x75, 0x65, 0x6e, 0x74, 0x69, 0x61, 0x6c, 0x2f, 0x63, 0x6f, 0x6e, 0x76, 
  0x31, 0x64, 0x5f, 0x31, 0x2f, 0x42, 0x69, 0x61, 0x73, 0x41, 0x64, 0x64, 
  0x3b, 0x73, 0x65, 0x71, 0x75, 0x65, 0x6e, 0x74, 0x69, 0x61, 0x6c, 0x2f, 
  0x63, 0x6f, 0x6e, 0x76, 0x31, 0x64, 0x5f, 0x31, 0x2f, 0x43, 0x6f, 0x6e, 
  0x76, 0x31, 0x44, 0x2f, 0x53, 0x71, 0x75, 0x65, 0x65, 0x7a, 0x65, 0x3b, 
  0x73, 0x65, 0x71, 0x75, 0x65, 0x6e, 0x74, 0x69, 0x61, 0x6c, 0x2f, 0x63, 
  0x6f, 0x6e, 0x76, 0x31, 0x64, 0x5f, 0x31, 0x2f, 0x42, 0x69, 0x61, 0x73, 
  0x41, 0x64, 0x64, 0x2f, 0x52, 0x65, 0x61, 0x64, 0x56, 0x61, 0x72, 0x69, 
  0x61, 0x62, 0x6c, 0x65, 0x4f, 0x70, 0x3b, 0x73, 0x65, 0x71, 0x75, 0x65, 
  0x6e, 0x74, 0x69, 0x61, 0x6c, 0x2f, 0x63, 0x6f, 0x6e, 0x76, 0x31, 0x64, 
  0x5f, 0x31, 0x2f, 0x43, 0x6f, 0x6e, 0x76, 0x31, 0x44, 0x00, 0x00, 0x00, 
  0x04, 0x00, 0x00, 0x00, 0x01, 0x00, 0x00, 0x00, 0x01, 0x00, 0x00, 0x00, 
  0x32, 0x00, 0x00, 0x00, 0x10, 0x00, 0x00, 0x00, 0xca, 0xf6, 0xff, 0xff, 
  0x00, 0x00, 0x00, 0x01, 0x14, 0x00, 0x00, 0x00, 0x34, 0x00, 0x00, 0x00, 
  0x11, 0x00, 0x00, 0x00, 0x00, 0x00, 0x00, 0x09, 0x54, 0x00, 0x00, 0x00, 
  0xb4, 0xf6, 0xff, 0xff, 0x08, 0x00, 0x00, 0x00, 0x14, 0x00, 0x00, 0x00, 
  0x01, 0x00, 0x00, 0x00, 0x80, 0xff, 0xff, 0xff, 0xff, 0xff, 0xff, 0xff, 
  0x00, 0x00, 0x00, 0x00, 0x01, 0x00, 0x00, 0x00, 0x74, 0x47, 0x31, 0x3c, 
  0x26, 0x00, 0x00, 0x00, 0x73, 0x65, 0x71, 0x75, 0x65, 0x6e, 0x74, 0x69, 
  0x61, 0x6c, 0x2f, 0x63, 0x6f, 0x6e, 0x76, 0x31, 0x64, 0x5f, 0x31, 0x2f, 
  0x43, 0x6f, 0x6e, 0x76, 0x31, 0x44, 0x2f, 0x45, 0x78, 0x70, 0x61, 0x6e, 
  0x64, 0x44, 0x69, 0x6d, 0x73, 0x31, 0x00, 0x00, 0x04, 0x00, 0x00, 0x00, 
  0x01, 0x00, 0x00, 0x00, 0x01, 0x00, 0x00, 0x00, 0x32, 0x00, 0x00, 0x00, 
  0x08, 0x00, 0x00, 0x00, 0x4a, 0xf7, 0xff, 0xff, 0x00, 0x00, 0x00, 0x01, 
  0x14, 0x00, 0x00, 0x00, 0x30, 0x00, 0x00, 0x00, 0x10, 0x00, 0x00, 0x00, 
  0x00, 0x00, 0x00, 0x09, 0x4c, 0x00, 0x00, 0x00, 0x34, 0xf7, 0xff, 0xff, 
  0x08, 0x00, 0x00, 0x00, 0x10, 0x00, 0x00, 0x00, 0x01, 0x00, 0x00, 0x00, 
  0x80, 0xff, 0xff, 0xff, 0xff, 0xff, 0xff, 0xff, 0x01, 0x00, 0x00, 0x00, 
  0x74, 0x47, 0x31, 0x3c, 0x20, 0x00, 0x00, 0x00, 0x73, 0x65, 0x71, 0x75, 
  0x65, 0x6e, 0x74, 0x69, 0x61, 0x6c, 0x2f, 0x6d, 0x61, 0x78, 0x5f, 0x70, 
  0x6f, 0x6f, 0x6c, 0x69, 0x6e, 0x67, 0x31, 0x64, 0x2f, 0x4d, 0x61, 0x78, 
  0x50, 0x6f, 0x6f, 0x6c, 0x00, 0x00, 0x00, 0x00, 0x04, 0x00, 0x00, 0x00, 
  0x01, 0x00, 0x00, 0x00, 0x32, 0x00, 0x00, 0x00, 0x01, 0x00, 0x00, 0x00, 
  0x08, 0x00, 0x00, 0x00, 0xc2, 0xf7, 0xff, 0xff, 0x00, 0x00, 0x00, 0x01, 
  0x14, 0x00, 0x00, 0x00, 0x34, 0x00, 0x00, 0x00, 0x0f, 0x00, 0x00, 0x00, 
  0x00, 0x00, 0x00, 0x09, 0x54, 0x00, 0x00, 0x00, 0xac, 0xf7, 0xff, 0xff, 
  0x08, 0x00, 0x00, 0x00, 0x14, 0x00, 0x00, 0x00, 0x01, 0x00, 0x00, 0x00, 
  0x80, 0xff, 0xff, 0xff, 0xff, 0xff, 0xff, 0xff, 0x00, 0x00, 0x00, 0x00, 
  0x01, 0x00, 0x00, 0x00, 0x74, 0x47, 0x31, 0x3c, 0x24, 0x00, 0x00, 0x00, 
  0x73, 0x65, 0x71, 0x75, 0x65, 0x6e, 0x74, 0x69, 0x61, 0x6c, 0x2f, 0x6d, 
  0x61, 0x78, 0x5f, 0x70, 0x6f, 0x6f, 0x6c, 0x69, 0x6e, 0x67, 0x31, 0x64, 
  0x2f, 0x45, 0x78, 0x70, 0x61, 0x6e, 0x64, 0x44, 0x69, 0x6d, 0x73, 0x31, 
  0x00, 0x00, 0x00, 0x00, 0x04, 0x00, 0x00, 0x00, 0x01, 0x00, 0x00, 0x00, 
  0x63, 0x00, 0x00, 0x00, 0x01, 0x00, 0x00, 0x00, 0x08, 0x00, 0x00, 0x00, 
  0x42, 0xf8, 0xff, 0xff, 0x00, 0x00, 0x00, 0x01, 0x14, 0x00, 0x00, 0x00, 
  0x30, 0x00, 0x00, 0x00, 0x0e, 0x00, 0x00, 0x00, 0x00, 0x00, 0x00, 0x09, 
  0xbc, 0x00, 0x00, 0x00, 0x2c, 0xf8, 0xff, 0xff, 0x08, 0x00, 0x00, 0x00, 
  0x10, 0x00, 0x00, 0x00, 0x01, 0x00, 0x00, 0x00, 0x80, 0xff, 0xff, 0xff, 
  0xff, 0xff, 0xff, 0xff, 0x01, 0x00, 0x00, 0x00, 0x74, 0x47, 0x31, 0x3c, 
  0x93, 0x00, 0x00, 0x00, 0x73, 0x65, 0x71, 0x75, 0x65, 0x6e, 0x74, 0x69, 
  0x61, 0x6c, 0x2f, 0x63, 0x6f, 0x6e, 0x76, 0x31, 0x64, 0x2f, 0x52, 0x65, 
  0x6c, 0x75, 0x3b, 0x73, 0x65, 0x71, 0x75, 0x65, 0x6e, 0x74, 0x69, 0x61, 
  0x6c, 0x2f, 0x63, 0x6f, 0x6e, 0x76, 0x31, 0x64, 0x2f, 0x42, 0x69, 0x61, 
  0x73, 0x41, 0x64, 0x64, 0x3b, 0x73, 0x65, 0x71, 0x75, 0x65, 0x6e, 0x74, 
  0x69, 0x61, 0x6c, 0x2f, 0x63, 0x6f, 0x6e, 0x76, 0x31, 0x64, 0x2f, 0x43, 
  0x6f, 0x6e, 0x76, 0x31, 0x44, 0x2f, 0x53, 0x71, 0x75, 0x65, 0x65, 0x7a, 
  0x65, 0x3b, 0x73, 0x65, 0x71, 0x75, 0x65, 0x6e, 0x74, 0x69, 0x61, 0x6c, 
  0x2f, 0x63, 0x6f, 0x6e, 0x76, 0x31, 0x64, 0x2f, 0x42, 0x69, 0x61, 0x73, 
  0x41, 0x64, 0x64, 0x2f, 0x52, 0x65, 0x61, 0x64, 0x56, 0x61, 0x72, 0x69, 
  0x61, 0x62, 0x6c, 0x65, 0x4f, 0x70, 0x3b, 0x73, 0x65, 0x71, 0x75, 0x65, 
  0x6e, 0x74, 0x69, 0x61, 0x6c, 0x2f, 0x63, 0x6f, 0x6e, 0x76, 0x31, 0x64, 
  0x2f, 0x43, 0x6f, 0x6e, 0x76, 0x31, 0x44, 0x00, 0x04, 0x00, 0x00, 0x00, 
  0x01, 0x00, 0x00, 0x00, 0x01, 0x00, 0x00, 0x00, 0x63, 0x00, 0x00, 0x00, 
  0x08, 0x00, 0x00, 0x00, 0x2a, 0xf9, 0xff, 0xff, 0x00, 0x00, 0x00, 0x01, 
  0x14, 0x00, 0x00, 0x00, 0x34, 0x00, 0x00, 0x00, 0x0d, 0x00, 0x00, 0x00, 
  0x00, 0x00, 0x00, 0x09, 0x54, 0x00, 0x00, 0x00, 0x14, 0xf9, 0xff, 0xff, 
  0x08, 0x00, 0x00, 0x00, 0x14, 0x00, 0x00, 0x00, 0x01, 0x00, 0x00, 0x00, 
  0x80, 0xff, 0xff, 0xff, 0xff, 0xff, 0xff, 0xff, 0x00, 0x00, 0x00, 0x00, 
  0x01, 0x00, 0x00, 0x00, 0xfb, 0xfa, 0x7a, 0x3b, 0x24, 0x00, 0x00, 0x00, 
  0x73, 0x65, 0x71, 0x75, 0x65, 0x6e, 0x74, 0x69, 0x61, 0x6c, 0x2f, 0x63, 
  0x6f, 0x6e, 0x76, 0x31, 0x64, 0x2f, 0x43, 0x6f, 0x6e, 0x76, 0x31, 0x44, 
  0x2f, 0x45, 0x78, 0x70, 0x61, 0x6e, 0x64, 0x44, 0x69, 0x6d, 0x73, 0x31, 
  0x00, 0x00, 0x00, 0x00, 0x04, 0x00, 0x00, 0x00, 0x01, 0x00, 0x00, 0x00, 
  0x01, 0x00, 0x00, 0x00, 0x63, 0x00, 0x00, 0x00, 0x28, 0x00, 0x00, 0x00, 
  0xaa, 0xf9, 0xff, 0xff, 0x00, 0x00, 0x00, 0x01, 0x14, 0x00, 0x00, 0x00, 
  0x88, 0x00, 0x00, 0x00, 0x0c, 0x00, 0x00, 0x00, 0x00, 0x00, 0x00, 0x09, 
  0x9c, 0x00, 0x00, 0x00, 0x94, 0xf9, 0xff, 0xff, 0x08, 0x00, 0x00, 0x00, 
  0x4c, 0x00, 0x00, 0x00, 0x08, 0x00, 0x00, 0x00, 0x00, 0x00, 0x00, 0x00, 
  0x00, 0x00, 0x00, 0x00, 0x00, 0x00, 0x00, 0x00, 0x00, 0x00, 0x00, 0x00, 
  0x00, 0x00, 0x00, 0x00, 0x00, 0x00, 0x00, 0x00, 0x00, 0x00, 0x00, 0x00, 
  0x00, 0x00, 0x00, 0x00, 0x00, 0x00, 0x00, 0x00, 0x00, 0x00, 0x00, 0x00, 
  0x00, 0x00, 0x00, 0x00, 0x00, 0x00, 0x00, 0x00, 0x00, 0x00, 0x00, 0x00, 
  0x00, 0x00, 0x00, 0x00, 0x00, 0x00, 0x00, 0x00, 0x00, 0x00, 0x00, 0x00, 
  0x00, 0x00, 0x00, 0x00, 0x08, 0x00, 0x00, 0x00, 0x4f, 0x3d, 0x6b, 0x3b, 
  0x35, 0xa8, 0x0b, 0x3c, 0x56, 0x35, 0xd9, 0x3b, 0x79, 0xe1, 0x80, 0x3b, 
  0x6d, 0x5d, 0x49, 0x3b, 0x50, 0x7d, 0x71, 0x3b, 0xe3, 0x66, 0x5f, 0x3b, 
  0xa6, 0x8c, 0x2d, 0x3b, 0x18, 0x00, 0x00, 0x00, 0x73, 0x65, 0x71, 0x75, 
  0x65, 0x6e, 0x74, 0x69, 0x61, 0x6c, 0x2f, 0x63, 0x6f, 0x6e, 0x76, 0x31, 
  0x64, 0x2f, 0x43, 0x6f, 0x6e, 0x76, 0x31, 0x44, 0x00, 0x00, 0x00, 0x00, 
  0x04, 0x00, 0x00, 0x00, 0x08, 0x00, 0x00, 0x00, 0x01, 0x00, 0x00, 0x00, 
  0x03, 0x00, 0x00, 0x00, 0x28, 0x00, 0x00, 0x00, 0x72, 0xfa, 0xff, 0xff, 
  0x00, 0x00, 0x00, 0x01, 0x14, 0x00, 0x00, 0x00, 0x84, 0x00, 0x00, 0x00, 
  0x0b, 0x00, 0x00, 0x00, 0x00, 0x00, 0x00, 0x02, 0xa8, 0x00, 0x00, 0x00, 
  0x5c, 0xfa, 0xff, 0xff, 0x08, 0x00, 0x00, 0x00, 0x48, 0x00, 0x00, 0x00, 
  0x08, 0x00, 0x00, 0x00, 0x00, 0x00, 0x00, 0x00, 0x00, 0x00, 0x00, 0x00, 
  0x00, 0x00, 0x00, 0x00, 0x00, 0x00, 0x00, 0x00, 0x00, 0x00, 0x00, 0x00, 
  0x00, 0x00, 0x00, 0x00, 0x00, 0x00, 0x00, 0x00, 0x00, 0x00, 0x00, 0x00, 
  0x00, 0x00, 0x00, 0x00, 0x00, 0x00, 0x00, 0x00, 0x00, 0x00, 0x00, 0x00, 
  0x00, 0x00, 0x00, 0x00, 0x00, 0x00, 0x00, 0x00, 0x00, 0x00, 0x00, 0x00, 
  0x00, 0x00, 0x00, 0x00, 0x00, 0x00, 0x00, 0x00, 0x08, 0x00, 0x00, 0x00, 
  0x80, 0xa0, 0x66, 0x37, 0x2f, 0xeb, 0x08, 0x38, 0x09, 0xf3, 0xd4, 0x37, 
  0x15, 0xb5, 0x7c, 0x37, 0xa7, 0x6a, 0x45, 0x37, 0x21, 0xc1, 0x6c, 0x37, 
  0x7f, 0x05, 0x5b, 0x37, 0x80, 0x25, 0x2a, 0x37, 0x28, 0x00, 0x00, 0x00, 
  0x73, 0x65, 0x71, 0x75, 0x65, 0x6e, 0x74, 0x69, 0x61, 0x6c, 0x2f, 0x63, 
  0x6f, 0x6e, 0x76, 0x31, 0x64, 0x2f, 0x42, 0x69, 0x61, 0x73, 0x41, 0x64, 
  0x64, 0x2f, 0x52, 0x65, 0x61, 0x64, 0x56, 0x61, 0x72, 0x69, 0x61, 0x62, 
  0x6c, 0x65, 0x4f, 0x70, 0x00, 0x00, 0x00, 0x00, 0x01, 0x00, 0x00, 0x00, 
  0x08, 0x00, 0x00, 0x00, 0x3a, 0xfb, 0xff, 0xff, 0x00, 0x00, 0x00, 0x01, 
  0x14, 0x00, 0x00, 0x00, 0xe8, 0x00, 0x00, 0x00, 0x0a, 0x00, 0x00, 0x00, 
  0x00, 0x00, 0x00, 0x09, 0xfc, 0x00, 0x00, 0x00, 0x24, 0xfb, 0xff, 0xff, 
  0x08, 0x00, 0x00, 0x00, 0x8c, 0x00, 0x00, 0x00, 0x10, 0x00, 0x00, 0x00, 
  0x00, 0x00, 0x00, 0x00, 0x00, 0x00, 0x00, 0x00, 0x00, 0x00, 0x00, 0x00, 
  0x00, 0x00, 0x00, 0x00, 0x00, 0x00, 0x00, 0x00, 0x00, 0x00, 0x00, 0x00, 
  0x00, 0x00, 0x00, 0x00, 0x00, 0x00, 0x00, 0x00, 0x00, 0x00, 0x00, 0x00, 
  0x00, 0x00, 0x00, 0x00, 0x00, 0x00, 0x00, 0x00, 0x00, 0x00, 0x00, 0x00, 
  0x00, 0x00, 0x00, 0x00, 0x00, 0x00, 0x00, 0x00, 0x00, 0x00, 0x00, 0x00, 
  0x00, 0x00, 0x00, 0x00, 0x00, 0x00, 0x00, 0x00, 0x00, 0x00, 0x00, 0x00, 
  0x00, 0x00, 0x00, 0x00, 0x00, 0x00, 0x00, 0x00, 0x00, 0x00, 0x00, 0x00, 
  0x00, 0x00, 0x00, 0x00, 0x00, 0x00, 0x00, 0x00, 0x00, 0x00, 0x00, 0x00, 
  0x00, 0x00, 0x00, 0x00, 0x00, 0x00, 0x00, 0x00, 0x00, 0x00, 0x00, 0x00, 
  0x00, 0x00, 0x00, 0x00, 0x00, 0x00, 0x00, 0x00, 0x00, 0x00, 0x00, 0x00, 
  0x00, 0x00, 0x00, 0x00, 0x00, 0x00, 0x00, 0x00, 0x00, 0x00, 0x00, 0x00, 
  0x10, 0x00, 0x00, 0x00, 0x45, 0x80, 0x38, 0x3b, 0xe7, 0xe2, 0x3f, 0x3b, 
  0x51, 0xc2, 0x7f, 0x3b, 0xff, 0x28, 0x65, 0x3b, 0x1e, 0x74, 0x97, 0x3c, 
  0xbe, 0xd9, 0x9e, 0x3b, 0x9a, 0xa0, 0x86, 0x3b, 0xe4, 0xbc, 0x86, 0x3b, 
  0x4d, 0x96, 0x63, 0x3b, 0xd8, 0x18, 0x3a, 0x3b, 0x92, 0x5b, 0x3a, 0x3b, 
  0x37, 0xfd, 0x89, 0x3b, 0x2d, 0xd4, 0xd2, 0x3b, 0x4a, 0xca, 0x3f, 0x3c, 
  0x90, 0xb2, 0xff, 0x3b, 0xc4, 0xbb, 0xa8, 0x3b, 0x1a, 0x00, 0x00, 0x00, 
  0x73, 0x65, 0x71, 0x75, 0x65, 0x6e, 0x74, 0x69, 0x61, 0x6c, 0x2f, 0x63, 
  0x6f, 0x6e, 0x76, 0x31, 0x64, 0x5f, 0x31, 0x2f, 0x43, 0x6f, 0x6e, 0x76, 
  0x31, 0x44, 0x00, 0x00, 0x04, 0x00, 0x00, 0x00, 0x10, 0x00, 0x00, 0x00, 
  0x01, 0x00, 0x00, 0x00, 0x03, 0x00, 0x00, 0x00, 0x08, 0x00, 0x00, 0x00, 
  0x62, 0xfc, 0xff, 0xff, 0x00, 0x00, 0x00, 0x01, 0x14, 0x00, 0x00, 0x00, 
  0xe4, 0x00, 0x00, 0x00, 0x09, 0x00, 0x00, 0x00, 0x00, 0x00, 0x00, 0x02, 
  0x08, 0x01, 0x00, 0x00, 0x4c, 0xfc, 0xff, 0xff, 0x08, 0x00, 0x00, 0x00, 
  0x88, 0x00, 0x00, 0x00, 0x10, 0x00, 0x00, 0x00, 0x00, 0x00, 0x00, 0x00, 
  0x00, 0x00, 0x00, 0x00, 0x00, 0x00, 0x00, 0x00, 0x00, 0x00, 0x00, 0x00, 
  0x00, 0x00, 0x00, 0x00, 0x00, 0x00, 0x00, 0x00, 0x00, 0x00, 0x00, 0x00, 
  0x00, 0x00, 0x00, 0x00, 0x00, 0x00, 0x00, 0x00, 0x00, 0x00, 0x00, 0x00, 
  0x00, 0x00, 0x00, 0x00, 0x00, 0x00, 0x00, 0x00, 0x00, 0x00, 0x00, 0x00, 
  0x00, 0x00, 0x00, 0x00, 0x00, 0x00, 0x00, 0x00, 0x00, 0x00, 0x00, 0x00, 
  0x00, 0x00, 0x00, 0x00, 0x00, 0x00, 0x00, 0x00, 0x00, 0x00, 0x00, 0x00, 
  0x00, 0x00, 0x00, 0x00, 0x00, 0x00, 0x00, 0x00, 0x00, 0x00, 0x00, 0x00, 
  0x00, 0x00, 0x00, 0x00, 0x00, 0x00, 0x00, 0x00, 0x00, 0x00, 0x00, 0x00, 
  0x00, 0x00, 0x00, 0x00, 0x00, 0x00, 0x00, 0x00, 0x00, 0x00, 0x00, 0x00, 
  0x00, 0x00, 0x00, 0x00, 0x00, 0x00, 0x00, 0x00, 0x00, 0x00, 0x00, 0x00, 
  0x00, 0x00, 0x00, 0x00, 0x10, 0x00, 0x00, 0x00, 0x5e, 0x88, 0xff, 0x37, 
  0x71, 0xe1, 0x04, 0x38, 0xbd, 0x1c, 0x31, 0x38, 0x4f, 0xb1, 0x1e, 0x38, 
  0x1d, 0xc3, 0x51, 0x39, 0xc5, 0x01, 0x5c, 0x38, 0x3c, 0x75, 0x3a, 0x38, 
  0x6a, 0x9c, 0x3a, 0x38, 0x71, 0x9a, 0x1d, 0x38, 0x1f, 0xdf, 0x00, 0x38, 
  0x54, 0x0d, 0x01, 0x38, 0x2e, 0x1d, 0x3f, 0x38, 0x8b, 0xff, 0x91, 0x38, 
  0x65, 0xd0, 0x04, 0x39, 0xd4, 0x11, 0xb1, 0x38, 0xd6, 0xb1, 0x69, 0x38, 
  0x2a, 0x00, 0x00, 0x00, 0x73, 0x65, 0x71, 0x75, 0x65, 0x6e, 0x74, 0x69, 
  0x61, 0x6c, 0x2f, 0x63, 0x6f, 0x6e, 0x76, 0x31, 0x64, 0x5f, 0x31, 0x2f, 
  0x42, 0x69, 0x61, 0x73, 0x41, 0x64, 0x64, 0x2f, 0x52, 0x65, 0x61, 0x64, 
  0x56, 0x61, 0x72, 0x69, 0x61, 0x62, 0x6c, 0x65, 0x4f, 0x70, 0x00, 0x00, 
  0x01, 0x00, 0x00, 0x00, 0x10, 0x00, 0x00, 0x00, 0x8a, 0xfd, 0xff, 0xff, 
  0x00, 0x00, 0x00, 0x01, 0x14, 0x00, 0x00, 0x00, 0x30, 0x00, 0x00, 0x00, 
  0x08, 0x00, 0x00, 0x00, 0x00, 0x00, 0x00, 0x09, 0x44, 0x00, 0x00, 0x00, 
  0x74, 0xfd, 0xff, 0xff, 0x08, 0x00, 0x00, 0x00, 0x10, 0x00, 0x00, 0x00, 
  0x01, 0x00, 0x00, 0x00, 0x00, 0x00, 0x00, 0x00, 0x00, 0x00, 0x00, 0x00, 
  0x01, 0x00, 0x00, 0x00, 0x23, 0x0a, 0xeb, 0x3b, 0x18, 0x00, 0x00, 0x00, 
  0x73, 0x65, 0x71, 0x75, 0x65, 0x6e, 0x74, 0x69, 0x61, 0x6c, 0x2f, 0x79, 
  0x5f, 0x70, 0x72, 0x65, 0x64, 0x2f, 0x4d, 0x61, 0x74, 0x4d, 0x75, 0x6c, 
  0x00, 0x00, 0x00, 0x00, 0x02, 0x00, 0x00, 0x00, 0x02, 0x00, 0x00, 0x00, 
  0x90, 0x01, 0x00, 0x00, 0xf2, 0xfd, 0xff, 0xff, 0x00, 0x00, 0x00, 0x01, 
  0x14, 0x00, 0x00, 0x00, 0x34, 0x00, 0x00, 0x00, 0x07, 0x00, 0x00, 0x00, 
  0x00, 0x00, 0x00, 0x02, 0x58, 0x00, 0x00, 0x00, 0xdc, 0xfd, 0xff, 0xff, 
  0x08, 0x00, 0x00, 0x00, 0x14, 0x00, 0x00, 0x00, 0x01, 0x00, 0x00, 0x00, 
  0x00, 0x00, 0x00, 0x00, 0x00, 0x00, 0x00, 0x00, 0x00, 0x00, 0x00, 0x00, 
  0x01, 0x00, 0x00, 0x00, 0xd9, 0xc0, 0x3e, 0x39, 0x28, 0x00, 0x00, 0x00, 
  0x73, 0x65, 0x71, 0x75, 0x65, 0x6e, 0x74, 0x69, 0x61, 0x6c, 0x2f, 0x79, 
  0x5f, 0x70, 0x72, 0x65, 0x64, 0x2f, 0x42, 0x69, 0x61, 0x73, 0x41, 0x64, 
  0x64, 0x2f, 0x52, 0x65, 0x61, 0x64, 0x56, 0x61, 0x72, 0x69, 0x61, 0x62, 
  0x6c, 0x65, 0x4f, 0x70, 0x00, 0x00, 0x00, 0x00, 0x01, 0x00, 0x00, 0x00, 
  0x02, 0x00, 0x00, 0x00, 0x6a, 0xfe, 0xff, 0xff, 0x00, 0x00, 0x00, 0x01, 
  0x14, 0x00, 0x00, 0x00, 0x14, 0x00, 0x00, 0x00, 0x06, 0x00, 0x00, 0x00, 
  0x00, 0x00, 0x00, 0x02, 0x28, 0x00, 0x00, 0x00, 0xc0, 0xfe, 0xff, 0xff, 
  0x18, 0x00, 0x00, 0x00, 0x73, 0x65, 0x71, 0x75, 0x65, 0x6e, 0x74, 0x69, 
  0x61, 0x6c, 0x2f, 0x66, 0x6c, 0x61, 0x74, 0x74, 0x65, 0x6e, 0x2f, 0x43, 
  0x6f, 0x6e, 0x73, 0x74, 0x00, 0x00, 0x00, 0x00, 0x01, 0x00, 0x00, 0x00, 
  0x02, 0x00, 0x00, 0x00, 0xb2, 0xfe, 0xff, 0xff, 0x00, 0x00, 0x00, 0x01, 
  0x14, 0x00, 0x00, 0x00, 0x14, 0x00, 0x00, 0x00, 0x05, 0x00, 0x00, 0x00, 
  0x00, 0x00, 0x00, 0x02, 0x34, 0x00, 0x00, 0x00, 0x08, 0xff, 0xff, 0xff, 
  0x25, 0x00, 0x00, 0x00, 0x73, 0x65, 0x71, 0x75, 0x65, 0x6e, 0x74, 0x69, 
  0x61, 0x6c, 0x2f, 0x6d, 0x61, 0x78, 0x5f, 0x70, 0x6f, 0x6f, 0x6c, 0x69, 
  0x6e, 0x67, 0x31, 0x64, 0x5f, 0x31, 0x2f, 0x45, 0x78, 0x70, 0x61, 0x6e, 
  0x64, 0x44, 0x69, 0x6d, 0x73, 0x00, 0x00, 0x00, 0x01, 0x00, 0x00, 0x00, 
  0x04, 0x00, 0x00, 0x00, 0x06, 0xff, 0xff, 0xff, 0x00, 0x00, 0x00, 0x01, 
  0x14, 0x00, 0x00, 0x00, 0x14, 0x00, 0x00, 0x00, 0x04, 0x00, 0x00, 0x00, 
  0x00, 0x00, 0x00, 0x02, 0x34, 0x00, 0x00, 0x00, 0x5c, 0xff, 0xff, 0xff, 
  0x25, 0x00, 0x00, 0x00, 0x73, 0x65, 0x71, 0x75, 0x65, 0x6e, 0x74, 0x69, 
  0x61, 0x6c, 0x2f, 0x63, 0x6f, 0x6e, 0x76, 0x31, 0x64, 0x5f, 0x31, 0x2f, 
  0x43, 0x6f, 0x6e, 0x76, 0x31, 0x44, 0x2f, 0x45, 0x78, 0x70, 0x61, 0x6e, 
  0x64, 0x44, 0x69, 0x6d, 0x73, 0x00, 0x00, 0x00, 0x01, 0x00, 0x00, 0x00, 
  0x04, 0x00, 0x00, 0x00, 0x5a, 0xff, 0xff, 0xff, 0x00, 0x00, 0x00, 0x01, 
  0x14, 0x00, 0x00, 0x00, 0x14, 0x00, 0x00, 0x00, 0x03, 0x00, 0x00, 0x00, 
  0x00, 0x00, 0x00, 0x02, 0x30, 0x00, 0x00, 0x00, 0xb0, 0xff, 0xff, 0xff, 
  0x23, 0x00, 0x00, 0x00, 0x73, 0x65, 0x71, 0x75, 0x65, 0x6e, 0x74, 0x69, 
  0x61, 0x6c, 0x2f, 0x6d, 0x61, 0x78, 0x5f, 0x70, 0x6f, 0x6f, 0x6c, 0x69, 
  0x6e, 0x67, 0x31, 0x64, 0x2f, 0x45, 0x78, 0x70, 0x61, 0x6e, 0x64, 0x44, 
  0x69, 0x6d, 0x73, 0x00, 0x01, 0x00, 0x00, 0x00, 0x04, 0x00, 0x00, 0x00, 
  0xaa, 0xff, 0xff, 0xff, 0x00, 0x00, 0x00, 0x01, 0x18, 0x00, 0x00, 0x00, 
  0x18, 0x00, 0x00, 0x00, 0x02, 0x00, 0x00, 0x00, 0x00, 0x00, 0x00, 0x02, 
  0x34, 0x00, 0x00, 0x00, 0x04, 0x00, 0x04, 0x00, 0x04, 0x00, 0x00, 0x00, 
  0x23, 0x00, 0x00, 0x00, 0x73, 0x65, 0x71, 0x75, 0x65, 0x6e, 0x74, 0x69, 
  0x61, 0x6c, 0x2f, 0x63, 0x6f, 0x6e, 0x76, 0x31, 0x64, 0x2f, 0x43, 0x6f, 
  0x6e, 0x76, 0x31, 0x44, 0x2f, 0x45, 0x78, 0x70, 0x61, 0x6e, 0x64, 0x44, 
  0x69, 0x6d, 0x73, 0x00, 0x01, 0x00, 0x00, 0x00, 0x04, 0x00, 0x00, 0x00, 
  0x00, 0x00, 0x16, 0x00, 0x1c, 0x00, 0x18, 0x00, 0x17, 0x00, 0x10, 0x00, 
  0x0c, 0x00, 0x08, 0x00, 0x00, 0x00, 0x00, 0x00, 0x00, 0x00, 0x07, 0x00, 
  0x16, 0x00, 0x00, 0x00, 0x00, 0x00, 0x00, 0x01, 0x20, 0x00, 0x00, 0x00, 
  0x3c, 0x00, 0x00, 0x00, 0x01, 0x00, 0x00, 0x00, 0x00, 0x00, 0x00, 0x09, 
  0x48, 0x00, 0x00, 0x00, 0x0c, 0x00, 0x0c, 0x00, 0x00, 0x00, 0x00, 0x00, 
  0x08, 0x00, 0x04, 0x00, 0x0c, 0x00, 0x00, 0x00, 0x08, 0x00, 0x00, 0x00, 
  0x10, 0x00, 0x00, 0x00, 0x01, 0x00, 0x00, 0x00, 0x80, 0xff, 0xff, 0xff, 
  0xff, 0xff, 0xff, 0xff, 0x01, 0x00, 0x00, 0x00, 0xfb, 0xfa, 0x7a, 0x3b, 
  0x13, 0x00, 0x00, 0x00, 0x73, 0x65, 0x72, 0x76, 0x69, 0x6e, 0x67, 0x5f, 
  0x64, 0x65, 0x66, 0x61, 0x75, 0x6c, 0x74, 0x5f, 0x78, 0x3a, 0x30, 0x00, 
  0x02, 0x00, 0x00, 0x00, 0x01, 0x00, 0x00, 0x00, 0x78, 0x0f, 0x00, 0x00, 
  0x05, 0x00, 0x00, 0x00, 0x6c, 0x00, 0x00, 0x00, 0x4c, 0x00, 0x00, 0x00, 
  0x2c, 0x00, 0x00, 0x00, 0x18, 0x00, 0x00, 0x00, 0x04, 0x00, 0x00, 0x00, 
  0xd0, 0xff, 0xff, 0xff, 0x19, 0x00, 0x00, 0x00, 0x02, 0x00, 0x00, 0x00, 
  0x00, 0x00, 0x00, 0x19, 0xe0, 0xff, 0xff, 0xff, 0x09, 0x00, 0x00, 0x00, 
  0x04, 0x00, 0x00, 0x00, 0x00, 0x00, 0x00, 0x09, 0xf0, 0xff, 0xff, 0xff, 
  0x11, 0x00, 0x00, 0x00, 0x02, 0x00, 0x00, 0x00, 0x00, 0x00, 0x00, 0x11, 
  0x0c, 0x00, 0x10, 0x00, 0x0f, 0x00, 0x00, 0x00, 0x08, 0x00, 0x04, 0x00, 
  0x0c, 0x00, 0x00, 0x00, 0x03, 0x00, 0x00, 0x00, 0x03, 0x00, 0x00, 0x00, 
  0x00, 0x00, 0x00, 0x03, 0x0c, 0x00, 0x0c, 0x00, 0x0b, 0x00, 0x00, 0x00, 
  0x00, 0x00, 0x04, 0x00, 0x0c, 0x00, 0x00, 0x00, 0x16, 0x00, 0x00, 0x00, 
  0x00, 0x00, 0x00, 0x16
};

const uint32_t sl_tflite_model_len = 7264UL;
